01011001
01111111
10000000
11110001
00100001
10101001
01111111
00110001
10111011
10111110
10000000
10000111
01010111
11011100
11100011
10000000
01000110
01001010
00001011
01011011
01001001
00001010
10100101
10000000
11111101
01010110
00001000
00010000
10000101
00110110
10000000
01111111
10111001
01000111
00110000
01010011
10001001
11101111
00001000
10101010
11000111
01000100
00010100
01111111
11010010
01111111
01111111
11100000
00010000
01111111
00101100
10000000
01111111
10011000
01110111
00011000
11011101
10000000
10000000
10010101
01110001
01101000
10000000
00100000
00011110
01111111
10010110
00011101
11000100
10110101
01111111
00110111
11111101
01111111
01111111
01011101
01100101
11100000
01101011
01111111
10100101
00001100
10000000
01110101
01101010
00010010
01111111
10011101
01111111
11000000
11011110
01100111
00000111
11000101
00100010
01001110
00011110
00100111
10000000
10111100
00010011
01111111
01111111
10011110
11001010
00101111
01111111
01100100
00100000
10100101
00001101
01111111
11000100
01001010
01010000
00111111
01111111
01111111
01111111
01111111
