10011001
00110101
00011001
10111001
01000101
11101101
11001111
00110111
01010000
01010001
01111111
00100100
11111010
11111000
01110101
11001000
11011101
11001111
00101100
00010001
00010001
11111011
10000000
01111001
11011001
01111100
00100101
11101101
11111011
10111010
00001110
11010001
00010011
00100000
00000100
11111000
00001000
00001110
01001010
11110011
01101101
01000110
00110010
00000111
01000111
01100000
00001100
01000100
11110000
11111101
00101000
11011101
00001111
00100111
01010001
11101000
11111101
11001110
11110101
01110101
01010001
10010101
11000100
00110010
01000000
01011011
11111000
01010001
00001011
11100111
00010011
01111111
11100100
00110010
00101111
00010011
00001001
10010010
11001011
00001011
11111011
11010010
11010100
11010001
