00010011
11110010
11100101
00001000
11101001
11011001
00110100
11011110
00001100
11101001
11101100
11110110
11111100
11111101
11110000
00001111
11100110
00010111
00010111
11111000
11011100
11111111
00100100
11011011
00100100
11100111
11110001
11011110
00100110
00000110
11111010
00001110
11100010
11111100
00000111
00000110
11100011
00110100
00000011
00001100
00000010
11101111
11011111
11110100
11110111
11000011
00010110
11100101
00001000
11110101
11101011
00011011
00000011
00001110
00000010
00101101
00101000
00000000
11011010
11100100
11101101
00100111
00011110
11100000
11010101
11000011
00000001
11111101
00000110
00100000
11011111
11111011
00100010
00010010
11110110
00000101
00011001
00100001
11100110
00000100
11101111
11111101
00010011
00101111
